memory_initialization_radix=16;
memory_initialization_vector=
075,
FBA,
FD7,
06A,
F69,
074,
FB6,
025,
019,
FF3,
02E,
F98,
097,
F77,
003,
FD1,
FE0,
F9E,
155,
01D,
FBE,
FC9,
FCB,
FE2,
FEC,
015,
035,
066,
F72,
066,
FEE,
06A,
052,
FAD,
F8F,
FD7,
067,
FEC,
006,
FE2,
082,
F88,
099,
FE1,
F9C,
03F,
FBF,
027,
FBB,
FDB,
FAF,
FB4,
02C,
FC0,
09B,
048,
FF1,
FA4,
03B,
021,
F8C,
059,
03B,
05A,
FAA,
FEA,
00B,
037,
F94,
F8D,
02A,
FD9,
000,
FF3,
038,
023,
06D,
05F,
EA1,
065,
FCD,
FB2,
029,
FE2,
059,
F90,
F55,
075,
FD5,
042,
04B,
F5D,
042,
030,
FA1,
F84,
0AF,
024,
F97,
FEF,
00D,
00E,
FFF,
027,
010,
004,
002,
013,
012,
002,
01C,
FF9,
005,
002,
FDC,
FF8,
01D,
001,
02C,
FFC,
00C,
01D,
027,
FF6,
00E,
025,
01A,
016,
FF7,
FD8,
FF0,
010,
01F,
FE4,
FFE,
FF3,
FEF,
FF7,
007,
026,
FFE,
014,
032,
005,
019,
019,
014,
00A,
FE9,
FE1,
FF2,
00C,
FE9,
001,
008,
FFB,
011,
00D,
00E,
015,
FCA,
048,
01B,
004,
FAC,
FC8,
FB7,
FF4,
03D,
007,
FB8,
02F,
02B,
019,
FCA,
00B,
FD1,
FE0,
FC8,
008,
FDB,
00F,
010,
028,
050,
026,
028,
01C,
FD6,
01D,
FF8,
FE2,
FCF,
FF0,
FFF,
017,
FDC,
FE4,
00C,
FDD,
009,
FE2,
FEE,
FFD,
038,
FCB,
006,
03E,
046,
FB3,
FFE,
FCE,
02B,
000,
020,
FF3,
FE2,
005,
016,
020,
FFE,
00E,
FE1,
037,
025,
01E,
022,
FDF,
FC6,
01C,
FD4,
01D,
FD8,
FDF,
01A,
FE6,
FE8,
028,
01A,
03E,
000,
FDE,
00F,
FE4,
FE5,
FEF,
FD3,
01F,
027,
FE6,
FE7,
FFA,
01B,
FFC,
FF5,
FF7,
FC4,
FCB,
FDF,
02A,
02C,
FE2,
FFC,
016,
FFF,
FDB,
02D,
045,
FE7,
FE7,
04A,
031,
FDB,
040,
007,
FB5,
024,
FDD,
033,
FC9,
004,
006,
005,
01D,
FF0,
FED,
FAA,
FFB,
FEB,
015,
FE0,
012,
042,
008,
00C,
FE9,
FCC,
044,
FDF,
01D,
008,
FCE,
013,
030,
007,
FCC,
FDB,
FFB,
FD0,
FDE,
FFA,
FF5,
008,
004,
002,
FD7,
FC9,
00A,
002,
033,
FFB,
008,
FF9,
FEF,
01F,
FDA,
FDD,
01F,
02D,
009,
FE9,
FFC,
FF1,
FF2,
022,
FEC,
FDA,
FF8,
FE8,
001,
FF9,
FFE,
032,
FEC,
006,
FF0,
FD8,
FDC,
00D,
00E,
FD1,
FC5,
FDA,
041,
FF9,
FFE,
FFB,
FE3,
FD5,
FF5,
01F,
00E,
FDB,
FEC,
028,
02C,
03E,
00A,
00F,
019,
FF2,
FD2,
00C,
FF7,
025,
FF5,
FDE,
FE1,
000,
FE7,
FD8,
012,
FF5,
FDB,
02C,
00C,
FFA,
022,
016,
015,
FED,
FE5,
02B,
FFE,
FDC,
032,
FFA,
000,
00D,
00A,
00B,
02E,
FFC,
FD9,
043,
FF8,
01B,
008,
030,
01C,
FEA,
041,
016,
FC0,
FF8,
FC2,
FC4,
FDF,
02B,
FE6,
FFD,
02D,
01F,
FCD,
00F,
013,
FA8,
03B,
FF5,
FD1,
FA5,
041,
022,
033,
FFA,
046,
FE0,
FCE,
005,
FE7,
FE3,
FDE,
000,
024,
02A,
FEB,
002,
01B,
019,
025,
FB6,
048,
FAA,
02C,
FFC,
025,
FE9,
045,
FBA,
FB1,
012,
011,
029,
00E,
010,
025,
FEA,
FF7,
014,
FFA,
004,
FDE,
01C,
00B,
FFB,
01D,
FE5,
001,
003,
FFD,
003,
FEE,
018,
027,
025,
017,
FDF,
011,
009,
FF6,
01F,
FF7,
003,
009,
029,
FEE,
FD0,
022,
00C,
00A,
00A,
FF8,
00B,
FE6,
00E,
021,
017,
FF4,
FEA,
009,
FE2,
FDC,
FF2,
009,
FFE,
FE8,
FE5,
FD7,
021,
00A,
FEC,
009,
004,
029,
00C,
FE1,
FCE,
FDA,
FDF,
00B,
FE3,
FDD,
01D,
008,
FFA,
FDF,
000,
014,
004,
FFC,
015,
FE4,
00A,
006,
003,
FF3,
FFF,
00E,
FF2,
02F,
014,
FD4,
FF5,
004,
FFE,
006,
FC9,
018,
FF9,
01A,
FF8,
FCE,
00E,
FC2,
FC9,
008,
028,
FE3,
FE7,
FD2,
FD4,
FEA,
FE4,
FE6,
001,
FF3,
FE7,
FED,
023,
FF7,
021,
FEC,
FBD,
FCD,
FDB,
FFF,
FEF,
002,
01A,
FCC,
027,
018,
FCE,
03E,
FF8,
FCD,
FDC,
024,
01B,
02D,
FFF,
01E,
029,
00A,
FDF,
037,
002,
FDE,
008,
034,
020,
FFE,
02A,
01D,
FE7,
FC9,
028,
024,
FEA,
00B,
00B,
FF0,
FF5,
FF3,
004,
028,
01B,
018,
01D,
011,
00F,
FF9,
026,
00E,
01A,
03F,
FFF,
028,
FF3,
011,
02F,
FE6,
003,
FD9,
FDC,
FFD,
FFA,
FF5,
FD7,
FEA,
000,
FF2,
01A,
01F,
00B,
02D,
FE4,
026,
FE9,
FDB,
FEC,
00E,
FE3,
FF5,
FDB,
002,
FF2,
021,
FF0,
FEF,
FF2,
036,
FF7,
FDE,
021,
000,
029,
FE8,
FD7,
FBB,
01F,
FF5,
FD1,
017,
FE1,
016,
FF6,
FD4,
025,
FC9,
021,
02A,
FE5,
FE3,
FE3,
FE2,
017,
FF6,
FE0,
FD0,
022,
FF4,
FE5,
FF6,
FCF,
FE5,
016,
FFE,
02C,
01E,
FDB,
FE9,
FF8,
009,
FFD,
FF1,
01A,
03D,
01A,
FE2,
FF5,
FED,
03C,
FE8,
FD5,
000,
FFD,
019,
013,
FDA,
01C,
01B,
013,
FCC,
019,
039,
00C,
FF4,
020,
FDD,
02C,
04E,
FE5,
FF2,
00B,
00C,
00B,
FE0,
027,
FEC,
FE7,
FE0,
012,
01F,
FB5,
035,
028,
00D,
021,
FE7,
020,
03F,
014,
FC6,
FE4,
02B,
027,
00A,
FD2,
FED,
FD3,
FE9,
042,
FD0,
FEB,
009,
FFE,
007,
FF0,
00A,
FD9,
00B,
FA8,
01C,
04B,
FFA,
FFE,
FFA,
FE4,
FD4,
FE2,
003,
FEF,
016,
FBF,
FE2,
FBF,
FCD,
021,
00E,
FC6,
002,
01D,
016,
032,
006,
02E,
FE6,
FF7,
FD6,
01D,
03F,
011,
02A,
FD1,
010,
01B,
023,
FC1,
FE3,
00A,
FF3,
01D,
FEB,
FE0,
029,
026,
035,
012,
FF4,
032,
02C,
FB9,
01E,
001,
FC8,
FF6,
FF0,
FE2,
FCE,
015,
030,
00E,
FC5,
022,
FFC,
036,
FB4,
FE9,
011,
01A,
FDE,
FC4,
00B,
FFB,
FC9,
FC8,
003,
FED,
019,
FDB,
FF3,
FCC,
FF8,
FF2,
FFB,
FD1,
FD1,
FF0,
FE8,
022,
003,
FEA,
010,
FF1,
024,
FEE,
FD9,
002,
021,
FD3,
FF2,
FFB,
008,
006,
FF1,
FEE,
00D,
FE2,
FDA,
FF8,
FD5,
007,
01F,
01C,
FDE,
00B,
019,
FFE,
011,
015,
024,
012,
00D,
FE5,
FE7,
FE4,
015,
FF3,
007,
FD8,
FE9,
FF9,
FEE,
040,
FD8,
FF5,
001,
FCC,
022,
FEB,
013,
028,
028,
00C,
039,
036,
FEC,
FF6,
FF6,
025,
004,
FC4,
03E,
00A,
FD2,
FFE,
026,
012,
01E,
016,
FC9,
FF9,
026,
FEC,
018,
004,
FFA,
008,
010,
FE6,
000,
019,
012,
02A,
FF0,
FC8,
FFA,
FF9,
01B,
023,
FD3,
001,
036,
FC9,
006,
00F,
009,
017,
FBF,
FFA,
FC7,
FC7,
FC7,
025,
02A,
013,
FFB,
037,
FF0,
01B,
FF3,
FE0,
FE9,
FEE,
FD7,
FFB,
FF9,
01F,
023,
FFA,
026,
000,
00D,
FDA,
FE9,
FD3,
040,
FC1,
FB9,
010,
02C,
022,
FD1,
FD2,
02C,
007,
FCC,
FF6,
010,
009,
FCD,
FD8,
FE3,
00B,
018,
010,
FEE,
FF3,
FE8,
01E,
038,
043,
011,
FEF,
00E,
016,
FB5,
FFD,
FCE,
FE0,
FEF,
FED,
FD3,
02C,
FFA,
FF3,
FDE,
FC7,
012,
FE6,
FE1,
00F,
005,
028,
FF0,
FCF,
00A,
FE5,
012,
FC7,
011,
FD3,
039,
02A,
02A,
021,
017,
FFB,
FED,
FEE,
FCD,
036,
009,
02E,
013,
FF2,
FD2,
FD9,
05A,
00B,
014,
FDC,
015,
FE7,
FF6,
002,
FEB,
FBA,
FE2,
02D,
02C,
FE4,
FF4,
FD9,
FE4,
FF6,
030,
FF5,
FFE,
02A,
01F,
034,
01D,
00C,
FFC,
FBE,
FBE,
FE0,
04A,
01F,
00F,
FE2,
FDE,
02A,
FF4,
FD6,
FFB,
FF1,
005,
011,
023,
FC6,
002,
FFC,
025,
009,
017,
03E,
029,
FDD,
000,
FCF,
014,
FE8,
024,
FE1,
FEC,
FED,
002,
018,
026,
026,
001,
FEF,
006,
FFA,
001,
FE2,
016,
027,
02F,
FC7,
025,
008,
01A,
02D,
021,
006,
024,
FDD,
025,
020,
008,
013,
009,
FD8,
FD2,
012,
FEF,
FCA,
00C,
FD8,
FE1,
FE6,
FF9,
039,
004,
FF6,
FE7,
FD7,
01A,
02A,
FD5,
FC3,
02A,
FD4,
FF6,
FD9,
FCD,
004,
FDF,
00D,
01C,
FFB,
FF2,
00C,
036,
012,
FD0,
FC7,
037,
018,
039,
FEE,
026,
022,
00F,
044,
006,
04A,
017,
FFD,
FF2,
FF0,
033,
026,
FF4,
FF0,
FFE,
FFE,
022,
01A,
014,
012,
FAE,
00D,
017,
FBC,
FE9,
014,
01B,
FD0,
FFF,
026,
018,
021,
FFC,
01C,
FD8,
FD7,
FBA,
00C,
01A,
023,
FCB,
FE6,
FFC,
005,
FEA,
01F,
020,
013,
FEF,
01A,
FC1,
020,
FFC,
FCF,
007,
FF9,
FEE,
00D,
FE0,
FF5,
FE0,
007,
03B,
FD8,
FDC,
FFE,
00A,
01D,
FC7,
01B,
028,
FEA,
015,
020,
01E,
00D,
009,
FCA,
FC9,
040,
FEE,
04E,
039,
FD7,
012,
FF7,
FE3,
006,
022,
FEA,
FDA,
FC2,
FDF,
013,
FF7,
011,
FE2,
00E,
007,
027,
FFD,
040,
000,
00F,
01E,
024,
FF7,
04B,
FD7,
00B,
038,
F93,
005,
052,
FF4,
F39,
069,
04B,
030,
0D9,
F4C,
076,
F32,
0B2,
0C2,
F39,
0EC,
F7D,
088,
006,
0CC,
FA9,
06A,
09C,
023,
F47,
FCE,
072,
F57,
003,
FF0,
00E,
007,
011,
00A,
FE7,
013,
FE0,
02F,
FEA,
FCE,
FFB,
016,
011,
FF9,
FF5,
00B,
FFC,
FE2,
FD5,
006,
005,
02B,
FF7,
023,
FDE,
FD1,
FF8,
FEF,
FDB,
FFF,
FE3,
01D,
003,
024,
007,
FF6,
FDD,
009,
FE5,
01D,
FE3,
FFB,
FF1,
006,
FF0,
FE4,
00A,
FFF,
011,
FE4,
FE6,
FE5,
027,
005,
FE7,
00C,
019,
006,
014,
022,
FF3,
01B,
028,
FFA,
005,
022,
028,
FEA,
FF7,
FF3,
FDF,
004,
02A,
02C,
021,
01A,
00F,
016,
01A,
FFF,
007,
022,
002,
FF0,
FE5,
010,
01A,
FE4,
FFF,
FFE,
002,
01F,
FF6,
FE7,
FC7,
FCF,
FF1,
FEF,
00F,
FF3,
FF0,
FE6,
FF2,
FF5,
027,
FF6,
FE6,
014,
FFB,
FFB,
FC7,
FD8,
FEB,
FF7,
FF3,
00E,
014,
FE4,
035,
FC2,
011,
00D,
FEB,
030,
FFA,
031,
012,
02F,
003,
009,
023,
FF5,
03F,
FF9,
03C,
FEC,
016,
FE9,
000,
012,
015,
FA9,
FA9,
01C,
FE4,
016,
FD9,
FDB,
014,
022,
021,
FED,
FDB,
000,
038,
FD2,
FE8,
FC8,
017,
02A,
02E,
03B,
FE8,
FDE,
02B,
FFB,
FE7,
FD4,
FEC,
FE9,
017,
FD8,
FFA,
FC6,
FEE,
FE8,
FD3,
FF1,
FF8,
01F,
033,
FE7,
FD4,
FEB,
FE9,
FEA,
FB4,
042,
032,
027,
00E,
01F,
007,
FE6,
FF8,
FCF,
00B,
FF5,
FEC,
003,
FFE,
FB8,
FFA,
FEC,
FF1,
012,
FFF,
FDF,
FD3,
001,
FDD,
046,
04B,
FF6,
024,
035,
008,
FFE,
02E,
FF1,
FD1,
FF5,
FE2,
048,
FFC,
031,
01D,
FD8,
FDF,
FD4,
FF1,
FB9,
FE5,
02B,
001,
FFE,
013,
FF7,
00F,
007,
FB6,
FDC,
FDE,
03F,
FBD,
FB7,
01D,
042,
FC3,
00F,
FD9,
003,
FB8,
FEA,
020,
FF2,
02C,
00F,
FB3,
FBE,
01B,
020,
FBB,
FF5,
012,
FD9,
041,
FF7,
FC7,
FD0,
FE8,
FB9,
01E,
028,
011,
014,
040,
032,
00E,
FCC,
FE1,
F9D,
FCA,
018,
FF6,
FD7,
018,
01E,
04B,
013,
01F,
00B,
FFB,
FCF,
070,
014,
035,
FB6,
FDE,
007,
FD3,
036,
024,
FE8,
025,
055,
FDE,
008,
022,
FC1,
FEF,
FB6,
01E,
FFC,
00D,
04A,
FE8,
FC6,
FFB,
FE3,
005,
012,
FD4,
FCB,
041,
048,
020,
02A,
01D,
FA6,
003,
FF7,
FDF,
003,
FDB,
03D,
F9A,
04B,
FC2,
00B,
044,
FFD,
FB4,
FD7,
FC8,
017,
FF6,
FF8,
FF8,
061,
052,
FFD,
037,
FEF,
02C,
FDB,
FCF,
FFC,
FD3,
006,
02F,
FF0,
00E,
FE9,
FCD,
FF7,
017,
02B,
FB8,
FCA,
FFE,
FF7,
00E,
001,
FF6,
01C,
006,
001,
FA1,
010,
08A,
04B,
FCE,
02F,
FD4,
FAC,
016,
FEE,
FF1,
FF6,
FF0,
FE9,
FF6,
001,
FF2,
FC0,
FC7,
024,
F78,
FF6,
06A,
FEC,
FBF,
FFE,
04E,
021,
FEB,
008,
014,
006,
010,
016,
FE3,
FCA,
079,
05D,
FFA,
FF4,
007,
01F,
021,
FCA,
004,
00F,
003,
FF1,
FF6,
FE8,
FDE,
01B,
FE5,
FF0,
003,
FD5,
004,
002,
018,
FD0,
FFA,
FB4,
FFC,
011,
FEC,
011,
029,
013,
FEF,
005,
FC1,
FE2,
033,
017,
FDE,
FB9,
FD9,
004,
FEA,
019,
038,
FF8,
FD4,
022,
FE6,
FCE,
007,
007,
013,
020,
03B,
024,
000,
034,
00B,
011,
029,
FDB,
023,
01D,
001,
FF6,
FDB,
01D,
020,
FF8,
00B,
002,
01C,
FFF,
FFD,
033,
FE8,
033,
FF6,
FF5,
01D,
FED,
018,
019,
014,
024,
FD5,
032,
FF1,
009,
FF6,
008,
FF7,
000,
FED,
038,
02B,
019,
023,
FE7,
FEE,
009,
023,
00F,
004,
023,
FD5,
023,
FFF,
01F,
FE1,
027,
029,
FE7,
00B,
FF5,
FF4,
025,
FED,
003,
009,
017,
006,
FE5,
FFF,
FDB,
001,
FE3,
FF1,
02F,
FDB,
FE6,
FEC,
01E,
00D,
FD4,
00D,
FFF,
FD9,
024,
00E,
FF2,
03D,
016,
001,
017,
FCE,
FD8,
009,
01F,
FF5,
FFB,
020,
FFB,
FF3,
FE5,
FD2,
005,
FF1,
02A,
03B,
01F,
01F,
003,
00B,
011,
FF2,
FF7,
FDB,
007,
FCB,
FF8,
FE1,
005,
FFB,
FE6,
012,
019,
011,
FFC,
FEB,
FF3,
FD9,
017,
004,
FFF,
017,
028,
FE5,
003,
FE2,
010,
005,
FF4,
FE7,
006,
025,
01A,
FEC,
01E,
FE2,
FDF,
030,
FED,
FCB,
FDC,
FFC,
FE1,
FE8,
000,
FD4,
016,
FDD,
FF6,
FE6,
FEE,
FF9,
00A,
FE2,
015,
01A,
FFC,
FF6,
FDF,
FD3,
FE6,
FD8,
003,
FE1,
008,
00E,
FD4,
019,
FF5,
FE1,
005,
FDA,
012,
FEB,
FFC,
FF6,
005,
00E,
028,
000,
018,
FD0,
FE5,
016,
011,
015,
00B,
022,
02A,
FE2,
FEC,
FF8,
01E,
FF6,
FED,
002,
015,
FDD,
FEF,
FD3,
FF1,
00B,
FE5,
FE5,
FD7,
02E,
00F,
030,
037,
FFA,
017,
018,
FF0,
FFB,
026,
00A,
00B,
FDB,
FF1,
FF0,
FF9,
00F,
00E,
FFA,
025,
FEB,
009,
FEF,
009,
03F,
FF9,
009,
FF3,
FF8,
FF5,
FF0,
FF7,
010,
FD1,
009,
FFD,
FF8,
023,
FFE,
FE7,
FEA,
FF2,
FC3,
FF6,
016,
04E,
FE9,
FE1,
011,
003,
FEA,
024,
017,
FC3,
FF7,
FE7,
FD2,
FDB,
023,
FCC,
FD8,
FD7,
FE4,
020,
020,
02C,
FF5,
FF6,
017,
FCB,
011,
030,
00C,
009,
001,
009,
FE5,
01E,
FEB,
FF3,
03F,
041,
FF2,
007,
01B,
015,
FD4,
023,
FD6,
044,
025,
026,
01C,
029,
FCF,
021,
018,
03D,
FE4,
03F,
02D,
FFA,
FE7,
FD2,
FC2,
FC4,
FE0,
00E,
FF3,
FDC,
02D,
FFF,
FE2,
FE8,
006,
030,
035,
020,
FCA,
FEE,
FF4,
FEE,
03B,
FF2,
FF3,
FEE,
01F,
FCC,
FFA,
FCD,
02D,
FD3,
00A,
FD0,
FF4,
016,
045,
040,
000,
FD9,
01D,
FEA,
00C,
FC4,
FBE,
FC6,
013,
FF6,
FF6,
FF3,
FF0,
FD5,
03D,
FE1,
FFA,
01F,
015,
FE9,
FD1,
006,
FEE,
021,
00C,
FF7,
002,
FF2,
FF8,
FEF,
034,
01A,
035,
050,
036,
FF6,
FEC,
003,
FEB,
FE1,
00A,
01C,
000,
023,
FBE,
FC1,
FD0,
FEF,
FDC,
FEB,
FD7,
023,
FED,
01A,
FF0,
012,
FDA,
FD0,
00D,
00E,
FDE,
FD3,
00B,
FEA,
000,
FFA,
008,
FE4,
FED,
FDC,
FBD,
FD2,
018,
01A,
014,
031,
FED,
FE5,
008,
FD0,
004,
FF1,
FB7,
FF4,
04E,
FDD,
001,
025,
016,
022,
025,
FEC,
FF7,
03E,
FD2,
021,
FCE,
FE5,
FF9,
FFF,
014,
FD4,
026,
001,
009,
FB4,
03E,
FFA,
FF9,
03E,
FF1,
035,
028,
FF0,
FC6,
FF9,
010,
029,
FEF,
FFE,
FEE,
FFA,
03F,
028,
FF4,
FDB,
001,
01C,
034,
FED,
FDC,
037,
014,
00A,
02A,
FF4,
FC9,
FF8,
FCF,
000,
004,
031,
02F,
FE4,
FDD,
FF1,
005,
012,
FF8,
010,
020,
FE1,
00E,
01F,
FDF,
FD8,
033,
027,
FB8,
FE1,
FEF,
005,
FD4,
025,
02B,
FDB,
FEC,
016,
FF7,
021,
018,
FEB,
FF4,
01B,
00E,
FC5,
038,
024,
FE5,
F93,
011,
020,
00F,
FEA,
FD7,
FDA,
FD4,
038,
FCE,
FFE,
020,
06F,
FBF,
FC9,
013,
052,
FFA,
007,
FE9,
043,
FFD,
FEB,
013,
FDB,
FFD,
021,
FE5,
FD2,
FFF,
FFC,
FE2,
02F,
035,
FAB,
FD8,
000,
FEF,
01A,
FDD,
002,
03C,
FCA,
FEB,
014,
031,
FFB,
028,
FDB,
FDE,
FF8,
032,
FF0,
014,
FDD,
FE4,
00A,
FD4,
013,
032,
001,
FF6,
FCB,
003,
FE6,
046,
FD2,
FDE,
019,
02B,
017,
009,
FEC,
FEF,
02F,
02B,
FED,
FED,
FE2,
FF1,
FFA,
02B,
FE2,
015,
FF6,
FEC,
FFC,
020,
FB9,
FE4,
FF7,
01C,
FF9,
022,
FDB,
FCC,
00E,
FF3,
028,
010,
00E,
029,
FE8,
FD5,
FFC,
00B,
FDD,
024,
FF7,
001,
022,
02F,
007,
FF3,
005,
FE4,
024,
011,
FF3,
FDA,
016,
FDA,
FF9,
011,
FF4,
FF4,
014,
FFD,
002,
01C,
002,
018,
FF6,
FE1,
00B,
FDC,
FE2,
FEA,
02E,
FE0,
00D,
010,
01F,
00B,
FD1,
FEC,
FD4,
FFC,
FFF,
FD6,
00D,
FE7,
031,
016,
FEF,
FF5,
FBC,
FFC,
FE0,
01B,
008,
023,
00D,
FF7,
FDC,
FFC,
01D,
FF0,
FED,
01A,
FEF,
FD8,
FC6,
FB0,
FC5,
FE4,
FCA,
FFB,
027,
FFA,
02B,
FEF,
FFB,
019,
FE5,
006,
014,
FF1,
022,
FDD,
FF6,
025,
029,
020,
014,
FCD,
004,
00D,
FF5,
009,
FFF,
FDF,
FFC,
000,
011,
00B,
000,
011,
016,
FE7,
03B,
FF7,
006,
020,
FC9,
022,
01C,
FE0,
FF1,
FFB,
008,
000,
00E,
FE5,
FD7,
FE1,
FF4,
008,
FC0,
FF8,
FFD,
00B,
FEC,
FF6,
FF2,
FF7,
FDC,
00E,
FDF,
001,
FF5,
01D,
FCB,
FFE,
01F,
010,
FD2,
034,
00B,
007,
020,
016,
01D,
FE7,
FDE,
00F,
00C,
01F,
FD9,
FFE,
FE3,
FDE,
FFE,
FEC,
FDA,
FF7,
FF1,
008,
02A,
FD4,
006,
00F,
FCB,
FEA,
015,
FDF,
019,
00B,
001,
024,
FD1,
038,
FD4,
018,
009,
01C,
008,
FE1,
002,
013,
FF2,
FC8,
019,
019,
01F,
016,
004,
FFC,
FFE,
013,
004,
011,
008,
FFD,
024,
008,
FF0,
035,
048,
FE5,
026,
000,
FF9,
02A,
FF7,
002,
00A,
FFE,
FF2,
02F,
FE6,
FF2,
01E,
FFD,
FF8,
003,
FFB,
021,
022,
FF9,
FE9,
FD6,
FDC,
FDC,
00A,
002,
00B,
FD7,
FFF,
FDC,
FDB,
024,
FE0,
021,
011,
FE0,
FF8,
FFD,
FE6,
012,
FF5,
FEE,
FEF,
FDE,
FD5,
023,
01A,
FF7,
01C,
01C,
00D,
025,
FF1,
00F,
01E,
01D,
FC4,
02D,
034,
FF1,
FC9,
000,
FDF,
029,
002,
001,
01D,
017,
001,
03A,
FE1,
00F,
FF2,
00A,
FEC,
00F,
FE0,
008,
FDB,
023,
FBE,
017,
002,
02C,
017,
FF8,
FFD,
01F,
FD2,
028,
FD4,
004,
022,
002,
FEB,
024,
033,
033,
FDB,
010,
FE0,
FEF,
FC8,
FEE,
FF6,
FD8,
FDC,
FF8,
029,
000,
01D,
FDB,
007,
01D,
008,
00A,
FD3,
014,
00B,
FF3,
FFD,
FDE,
FE3,
FFF,
01F,
FC7,
FF7,
00C,
025,
020,
015,
FC8,
FEC,
02A,
035,
019,
045,
018,
FEC,
FF8,
FFD,
FEF,
FDF,
FEC,
FEE,
01A,
FD7,
024,
FA0,
006,
FD7,
038,
FC5,
FDD,
01E,
01B,
022,
017,
FF1,
FE6,
02C,
009,
026,
FE5,
001,
FF7,
FF7,
012,
01E,
010,
012,
042,
011,
FEE,
FE3,
030,
01B,
FF8,
FE3,
FC6,
02F,
FCD,
FF7,
026,
02F,
FD9,
FE0,
014,
FFC,
001,
FCB,
033,
01D,
FF3,
026,
04F,
005,
003,
FE1,
FCD,
FE1,
013,
FF1,
01D,
015,
000,
020,
02F,
FF8,
026,
027,
044,
FD9,
031,
FF3,
FFB,
014,
FE2,
FD8,
FE9,
FF8,
FFE,
FDA,
FFB,
FD8,
005,
FBE,
FF4,
02E,
FD8,
FDC,
FE8,
FD5,
FD7,
030,
FD6,
013,
FC4,
FE3,
FB5,
FC2,
FE5,
FF8,
00A,
012,
017,
027,
001,
01A,
FDB,
FFB,
FED,
FDD,
FEB,
FCF,
017,
005,
005,
FED,
FF2,
FFE,
FF1,
004,
00F,
FE4,
016,
005,
009,
FE5,
004,
00C,
03C,
02C,
FEB,
FE3,
022,
00C,
FF7,
FF7,
022,
016,
02A,
FFE,
FFD,
FF7,
01A,
FEC,
00C,
FEA,
008,
035,
00D,
FFA,
005,
00A,
013,
FEB,
014,
FF8,
FFF,
FED,
009,
FE3,
002,
FFD,
022,
006,
FF6,
013,
012,
FDD,
01E,
01C,
00A,
FE7,
013,
012,
FF0,
FEC,
FE6,
FEE,
004,
01A,
FFE,
022,
01E,
003,
FF2,
FF9,
016,
020,
004,
FF4,
FE8,
FFE,
FDA,
FF3,
003,
FF9,
022,
002,
FE3,
FCC,
FC1,
FD4,
FEB,
002,
010,
FF2,
FE7,
FFC,
02E,
00A,
FF0,
FF4,
FD5,
011,
FFB,
FF6,
FFA,
FF1,
004,
FFE,
002,
FDC,
FEE,
011,
FEF,
FE6,
014,
FDF,
FEE,
036,
FED,
FF4,
02C,
FD9,
FFD,
FBB,
043,
023,
FE6,
FEC,
01C,
023,
005,
FF0,
00A,
FFB,
030,
021,
00D,
00A,
FDD,
FFA,
FDD,
00F,
FF4,
FCC,
FDA,
005,
006,
000,
007,
FDA,
FD5,
002,
01D,
FEB,
04D,
030,
01C,
FDE,
FEB,
FF5,
FE0,
FF0,
FEF,
023,
021,
FE0,
006,
FF1,
FE3,
014,
01B,
FF0,
FC9,
01C,
013,
00B,
FFC,
00D,
FF3,
00A,
01F,
FE2,
FDF,
010,
FF4,
FE2,
00D,
013,
018,
01D,
017,
FEE,
01B,
022,
FEF,
011,
FF1,
001,
01A,
013,
FDF,
FF5,
013,
FE3,
002,
FEA,
FF2,
003,
FFA,
00F,
02A,
FEA,
FF8,
01C,
FE6,
FE1,
012,
FD2,
006,
023,
002,
FE7,
00E,
010,
FEA,
FF4,
00C,
FFF,
01E,
FCE,
FCA,
006,
FE8,
FD2,
FF6,
021,
006,
007,
00E,
FED,
FFA,
FFF,
FD7,
FE7,
014,
00B,
014,
FF5,
FC9,
FE9,
018,
FF4,
FF0,
00B,
FEA,
FFC,
FF6,
FD7,
FD7,
FED,
FF6,
026,
FF5,
FF0,
FF1,
011,
030,
FFB,
FEE,
FE4,
01E,
000,
004,
FF7,
018,
01A,
FEA,
005,
008,
FDA,
007,
FEF,
016,
FFE,
FF2,
01F,
003,
02D,
017,
017,
FFB,
FEB,
FE3,
FE2,
019,
016,
005,
000,
016,
FF6,
FE4,
FF7,
003,
FF2,
FE8,
008,
FF4,
01A,
FF7,
025,
021,
00C,
FD4,
FF0,
000,
FE7,
019,
FF1,
FFD,
004,
FDC,
FFC,
FFA,
026,
01B,
FF9,
FD2,
FF0,
FD3,
00B,
01C,
011,
FEF,
015,
01B,
00E,
FFF,
017,
00D,
016,
FDE,
017,
FD6,
FE7,
FEA,
FF5,
FFD,
FF9,
FDC,
FED,
028,
009,
FF6,
025,
FD4,
003,
034,
00B,
FEB,
FD9,
001,
FEC,
00D,
040,
024,
FE6,
029,
FDA,
FF7,
02E,
00F,
FFB,
004,
00E,
FFE,
FF3,
FD0,
02A,
FE5,
02D,
00B,
FF6,
021,
FE5,
FFE,
FF6,
FF7,
02A,
019,
011,
00B,
01B,
010,
FF8,
003,
FEC,
032,
FCD,
FE4,
FD9,
004,
FED,
FED,
FF0,
FFB,
FDC,
02C,
002,
006,
FE1,
FF3,
019,
026,
01A,
01E,
FF5,
022,
039,
01A,
FEC,
005,
01D,
FDE,
001,
FE6,
003,
FE3,
FFF,
011,
FC7,
FD3,
017,
FE0,
021,
FEC,
02E,
FF4,
FF5,
011,
007,
017,
01C,
FE9,
003,
023,
FF5,
012,
018,
FFB,
02B,
FD6,
005,
004,
FF3,
FC0,
FEA,
008,
FEA,
FF7,
014,
FF1,
021,
FF4,
FE1,
049,
03B,
027,
FDE,
FE4,
FFC,
FE5,
FFE,
FE1,
FE8,
FF3,
FFF,
FF4,
006,
017,
009,
033,
010,
FC7,
018,
05D,
FE6,
FFA,
FE6,
FEF,
025,
FE1,
FDF,
FCE,
FAF,
FBF,
00A,
00E,
FE1,
FE6,
025,
004,
022,
FFE,
FF7,
FFE,
006,
065,
002,
FBA,
02D,
FE6,
00C,
04C,
021,
051,
FD6,
FE1,
FA8,
045,
FF2,
00E,
FDB,
00B,
040,
FE1,
026,
FCD,
FE7,
FFB,
FA3,
FC4,
FDF,
FE9,
028,
FEF,
004,
007,
FC0,
FFE,
004,
FE6,
02D,
025,
01E,
00D,
013,
FDB,
FFA,
FF8,
00A,
FEC,
00A,
02E,
028,
FEF,
001,
004,
FFE,
023,
FC4,
FDE,
FF3,
00F,
FCC,
001,
003,
FDA,
029,
03D,
041,
FFB,
FF6,
FFB,
02D,
FDC,
012,
00E,
019,
FE4,
00C,
FDB,
FF7,
01E,
FEA,
FF1,
026,
011,
FFC,
FF8,
FD4,
FB4,
004,
FF7,
008,
00A,
00E,
FE8,
FFC,
FF7,
FEE,
010,
001,
FE4,
FFC,
FFD,
FE9,
FEF,
00E,
FF1,
FE8,
FFB,
FEC,
FF0,
FF9,
FF0,
006,
FF6,
FFC,
FED,
FFC,
FE4,
FF0,
FF8,
FE8,
010,
000,
FFF,
009,
FFB,
007,
00F,
019,
00C,
FF5,
FF3,
003,
010,
00E,
FFE,
FEA,
012,
00F,
002,
004,
013,
FF8,
FFE,
01C,
008,
FF8,
011,
01C,
FEE,
FF6,
00C,
FFD,
FF6,
009,
003,
FF1,
FEA,
005,
006,
FEF,
00B,
FFD,
FEE,
018,
FF0,
FF7,
007,
003,
007,
013,
00F,
FFE,
FE8,
FEA,
FEE,
008,
FF2,
FFE,
016,
FF2,
00E,
002,
01F,
FFC,
000,
FF4,
FE1,
FF0,
002,
FFD,
FF3,
005,
FFF,
00F,
00C,
FF4,
FF3,
FEB,
FEA,
FE7,
006,
FFF,
FF2,
FFD,
FEC,
FF9,
FEC,
FFA,
FF0,
011,
FEE,
003,
FD6,
FF7,
FF6,
001,
022,
000,
FF5,
01D,
FE2,
006,
008,
007,
FF5,
009,
017,
FFA,
FDA,
FEA,
FE4,
FDD,
004,
FEC,
FE2,
01B,
FD3,
00A,
006,
FF9,
00A,
01A,
FF3,
FFE,
FE4,
FE0,
011,
006,
010,
FF6,
FF1,
00F,
FF0,
028,
FF4,
00C,
01B,
003,
FFE,
FE6,
00D,
FEA,
FF9,
FE3,
FE5,
005,
004,
FFB,
FF8,
FD5,
016,
FE8,
00D,
FE6,
00F,
00C,
004,
014,
015,
FE4,
FE0,
FF8,
FFE,
005,
FED,
FFB,
019,
014,
FEA,
014,
FF3,
006,
FDE,
00F,
FE0,
006,
FEB,
FEE,
FE8,
00D,
FF7,
FF4,
FFF,
FFD,
002,
FF5,
00D,
027,
FE7,
012,
FF1,
FF1,
FDF,
00E,
008,
FF9,
01C,
FF5,
FF4,
005,
002,
014,
013,
014,
018,
FE4,
FF6,
011,
01A,
00C,
FFB,
FFB,
FFD,
FF7,
006,
00E,
025,
FEF,
027,
021,
FF9,
025,
FFC,
FE4,
FD9,
00D,
FE8,
006,
FEA,
FE0,
FE9,
00F,
FE9,
FEE,
FD0,
01F,
007,
FE6,
FD6,
00F,
FDB,
FDE,
FD5,
034,
FE8,
010,
00F,
FE0,
FF6,
01D,
FEB,
FF6,
001,
FEA,
00E,
008,
FD1,
FDF,
012,
007,
FF3,
FF1,
FEE,
FF6,
FFE,
FE3,
006,
01E,
023,
01E,
005,
FD1,
FEE,
FF8,
028,
006,
02B,
FCD,
017,
FE2,
00E,
FFE,
FDA,
026,
FDC,
FEE,
FF2,
FFC,
00A,
FE0,
FDE,
FEB,
FF7,
013,
FCF,
012,
FD6,
FF7,
000,
FEB,
01B,
FCA,
008,
FF1,
036,
010,
038,
00C,
FF0,
FE6,
011,
FF4,
FD8,
FEE,
FF2,
FE2,
FF6,
011,
FEE,
023,
026,
FEF,
026,
FD3,
000,
FD4,
FE4,
FFA,
012,
FF7,
FF6,
00B,
FE0,
FF6,
FCD,
FE4,
00D,
FF7,
FDF,
FDC,
02A,
FFD,
FE4,
FF3,
009,
FDE,
004,
FE1,
FD0,
FFF,
026,
FEC,
006,
FE7,
FEE,
FEB,
01D,
FFD,
FF8,
FDA,
003,
FD7,
FE8,
016,
FD5,
001,
019,
FFD,
FEE,
000,
021,
FEC,
FE7,
FEA,
007,
007,
FF0,
004,
FF4,
006,
003,
FF8,
FF7,
FDD,
009,
015,
FF7,
02A,
00E,
015,
00C,
FF5,
01A,
007,
002,
FFF,
FE6,
FFF,
024,
FEF,
FEE,
FE6,
FDE,
006,
FEA,
008,
020,
001,
01E,
000,
00B,
010,
000,
016,
FFC,
FF4,
FFF,
01A,
018,
023,
FEB,
002,
000,
FFD,
FEA,
FD6,
FEA,
FBE,
026,
FF3,
013,
009,
FEC,
FEE,
017,
FF4,
FEB,
031,
009,
011,
FE9,
FFB,
00E,
FFA,
008,
FF2,
FF8,
FFF,
FC3,
FDE,
FF6,
FF4,
FF5,
006,
011,
FFC,
01A,
01C,
FF0,
044,
FF3,
FE8,
011,
FC4,
043,
03B,
FF8,
FD8,
05B,
069,
030,
FDF,
FEE,
016,
003,
FB5,
FFC,
005,
00C,
FB6,
FD0,
FB1,
FED,
018,
FB4,
024,
00F,
02B,
FE2,
005,
FFA,
FAB,
FE5,
000,
FF3,
FE3,
01B,
017,
FED,
FDF,
FF1,
011,
FD6,
025,
021,
FFF,
FC3,
FF3,
011,
FBB,
FDD,
FDB,
026,
008,
FD7,
FFC,
000,
FE3,
FE9,
01E,
00F,
039,
000,
FE1,
006,
FDA,
FAE,
F9E,
FCF,
041,
008,
004,
016,
01D,
FD1,
02C,
FF8,
FDD,
04E,
02D,
FFE,
FF3,
FD2,
FCB,
FF0,
01A,
022,
000,
FDE,
FD7,
034,
022,
03F,
FF2,
00B,
FE2,
FF0,
03E,
FA3,
038,
03D,
034,
FF0,
014,
00D,
FEB,
04E,
FD5,
021,
00A,
012,
FFF,
FDA,
007,
FD5,
FDD,
FDD,
FCA,
FE5,
008,
FEA,
FD6,
00A,
FFF,
005,
008,
FCD,
FEB,
026,
019,
FD9,
01C,
00D,
010,
013,
02A,
009,
FF7,
FF1,
FEB,
00F,
FF8,
01F,
FE5,
018,
FF4,
FE1,
02A,
007,
010,
FEC,
000,
FF7,
FF1,
002,
001,
FE8,
00E,
012,
018,
FE1,
FE1,
014,
02E,
004,
FD6,
02D,
012,
FDC,
FFD,
014,
004,
023,
FDD,
003,
FE4,
FC7,
FF9,
FDF,
014,
FD8,
FFB,
FEC,
015,
020,
027,
FFA,
FF7,
009,
FE4,
FFD,
006,
FDC,
FD0,
FE1,
FD7,
FE5,
FE0,
025,
01A,
FD5,
FEC,
010,
FEF,
FFA,
FDB,
FE2,
012,
FDF,
FF0,
009,
00B,
00B,
015,
FEE,
FE2,
018,
FF9,
FDC,
006,
02C,
016,
FFD,
012,
00B,
FEC,
FED,
001,
0AF,
080,
0BA,
058,
F29,
10A,
062,
FFE,
056,
12A,
FAE,
08E,
02E,
053,
027,
0CF,
F47,
085,
0EA,
103,
166,
104,
07D,
10D,
01D,
005,
030,
036,
022,
022,
005,
02A,
FEB,
010,
009,
FEA,
00D,
FBD,
FCE,
009,
000,
FE6,
FED,
017,
FE5,
FBE,
FCE,
FFB,
FD8,
00B,
FF8,
FDB,
FEF,
000,
027,
FDC,
024,
FD3,
02A,
003,
016,
00F,
FDC,
FEE,
019,
FF6,
FF6,
FF0,
FFF,
016,
FDB,
FF9,
015,
02D,
FF0,
FDC,
00D,
023,
FE4,
02A,
FE1,
010,
014,
FE5,
018,
FF3,
01D,
01A,
FE8,
FFF,
02E,
023,
02A,
FEB,
FF9,
FE1,
FFF,
001,
FE4,
FF6,
FDA,
005,
007,
03D,
FEE,
FF4,
FFE,
FF0,
00F,
FF1,
010,
FED,
026,
032,
044,
037,
00E,
FE6,
FF5,
FDA,
FF6,
FE3,
FFD,
010,
FE0,
FEC,
019,
FE0,
FC0,
00B,
021,
012,
FD0,
FF3,
014,
FC9,
FEF,
FF3,
023,
009,
02F,
031,
00F,
FE2,
FC9,
FF6,
004,
FE4,
FCB,
003,
010,
026,
003,
00C,
01F,
00D,
004,
028,
FFC,
FB9,
FB1,
F9E,
FB3,
F94,
02A,
01E,
FD7,
025,
00C,
019,
009,
023,
FE7,
00C,
FE1,
007,
FED,
FF3,
FD6,
FF0,
FDB,
FDA,
FD5,
FE3,
FD1,
F9F,
FB4,
FFC,
FCA,
FCD,
FD5,
FEC,
FC6,
FDC,
FCD,
FC7,
FFE,
FFC,
FEB,
FCD,
002,
037,
FF7,
05C,
00D,
FF6,
007,
FFE,
016,
000,
FD3,
FBF,
02A,
FF9,
02F,
FF2,
030,
03E,
01D,
FFC,
FFF,
027,
FB7,
FB2,
00B,
FFE,
03F,
FD5,
018,
034,
00E,
017,
FF4,
02B,
019,
FC9,
FE4,
035,
FDF,
01F,
FDD,
022,
025,
00E,
035,
001,
038,
000,
042,
FAF,
FE2,
016,
00D,
00B,
FCD,
FBB,
016,
FBA,
FF0,
012,
FDA,
FEA,
FE6,
00E,
019,
001,
025,
FE0,
010,
FD0,
FD5,
FEE,
00C,
025,
035,
FDD,
FDB,
018,
01C,
06F,
FE3,
026,
002,
034,
FD7,
FF6,
FC7,
00C,
FD8,
03D,
027,
FFF,
FE4,
008,
00F,
FC2,
FFD,
007,
008,
014,
FDA,
FE4,
FEA,
FED,
023,
021,
FEC,
FE3,
FF8,
042,
024,
039,
FD7,
025,
01F,
FC3,
FDB,
FFD,
FD8,
FF7,
029,
FE3,
024,
FAB,
009,
001,
00A,
FFE,
FE5,
04F,
FCC,
FFC,
001,
01B,
04F,
014,
01A,
FF4,
FDA,
FF9,
007,
FEE,
FE8,
FDE,
02C,
FE7,
FF1,
014,
001,
003,
031,
037,
018,
FDA,
03F,
01D,
01A,
001,
FEF,
FE9,
FED,
FC5,
FC7,
023,
FDE,
FB9,
FA0,
019,
FB1,
00C,
FEC,
00E,
029,
03F,
007,
006,
00C,
FDE,
FF8,
02E,
FD8,
018,
FEA,
FD3,
035,
03F,
047,
FDC,
FEA,
03F,
FD7,
02C,
040,
00C,
029,
FA8,
009,
FFB,
005,
030,
031,
FED,
01B,
03D,
004,
00C,
001,
034,
FD7,
FD1,
F90,
FF2,
006,
FAF,
014,
FB7,
02D,
003,
FE4,
FD0,
FC0,
FE8,
FE9,
FBF,
04D,
00D,
02C,
00D,
FDD,
029,
00B,
FE4,
045,
03E,
034,
00E,
FD7,
FC7,
FD9,
03D,
FF5,
FFB,
010,
FEC,
03D,
FEA,
FF5,
01B,
017,
00D,
02E,
01A,
037,
024,
06C,
054,
066,
018,
008,
F84,
007,
049,
FF0,
025,
01D,
FB1,
000,
036,
FCB,
034,
02E,
023,
04B,
04A,
FD6,
016,
013,
020,
FF9,
010,
FC2,
FED,
00B,
FE5,
FD9,
FD8,
005,
010,
FDA,
FED,
056,
01C,
FBC,
FE0,
FF5,
FCB,
00A,
FF3,
FB9,
FED,
01A,
FFA,
050,
016,
01E,
02C,
01D,
01B,
FFB,
00F,
01E,
03B,
FF1,
015,
044,
FF9,
FEC,
FA2,
FB0,
FF8,
FF5,
FEB,
F9F,
FB8,
FEF,
FE7,
F96,
FB9,
002,
FD1,
038,
027,
023,
030,
038,
FF4,
FC5,
FEF,
FE8,
020,
00D,
02E,
01D,
013,
00C,
003,
028,
FD0,
01A,
FE2,
01D,
FC0,
011,
039,
FCA,
003,
FE1,
009,
FFD,
004,
032,
006,
02D,
FD9,
008,
04D,
036,
FD7,
014,
F67,
007,
00E,
039,
FEE,
FA9,
021,
F94,
025,
03A,
040,
02C,
FB9,
FF6,
070,
FCB,
FBC,
FA7,
023,
FD8,
05E,
FE1,
023,
001,
04A,
050,
059,
FF8,
003,
FDB,
02F,
FF1,
038,
FCF,
038,
FD2,
FF0,
FC1,
00F,
FF2,
006,
022,
050,
015,
FE0,
03A,
013,
016,
00E,
FFE,
FDF,
FB6,
020,
FDC,
FAC,
FBB,
F85,
015,
03D,
FF0,
FD8,
FD0,
FE7,
019,
041,
FBE,
04A,
04A,
FC8,
053,
FD1,
FD1,
052,
FC8,
03B,
054,
030,
046,
FC7,
FB2,
03A,
01D,
052,
032,
07F,
031,
FC2,
024,
009,
FB1,
FEC,
FD2,
FE3,
FE8,
F94,
FF6,
F8B,
FEC,
FEC,
FC7,
FF2,
FA0,
011,
FD7,
FDA,
01A,
041,
01D,
043,
FE3,
FD1,
FB4,
01A,
00A,
083,
02A,
FE1,
FF0,
026,
016,
F84,
F86,
F6C,
008,
FDB,
012,
048,
FCB,
050,
04E,
FD6,
FEE,
FAA,
010,
FCF,
029,
02F,
FC9,
05B,
FD1,
F8A,
FE4,
029,
02D,
FD4,
FD5,
FEB,
FA4,
FDC,
FAF,
07A,
FE6,
01B,
076,
010,
058,
003,
032,
052,
FEB,
00A,
00F,
FC4,
048,
FDE,
FC1,
02C,
FDA,
FDF,
FFC,
FF7,
FDC,
03E,
008,
FE0,
FDB,
000,
FF1,
037,
FAE,
FD5,
FF9,
FDF,
FD4,
017,
01F,
045,
03D,
FF5,
FE6,
020,
046,
03A,
0C2,
059,
FE2,
032,
FF4,
FF9,
02F,
013,
025,
03F,
058,
01C,
FD0,
FCE,
FE6,
FD6,
01C,
003,
FC8,
FCE,
FFC,
FBD,
001,
008,
05A,
022,
FEE,
02F,
013,
02B,
FEA,
00C,
03A,
01A,
012,
02E,
FF8,
FDD,
FE2,
FD2,
FAA,
FE8,
FE8,
FBB,
FFE,
FDB,
FEE,
01C,
001,
FCB,
FF9,
FE4,
FF1,
FFD,
FC6,
FF5,
FCF,
00B,
FEC,
FB4,
FCC,
FE9,
FFE,
FF6,
002,
FDD,
FF0,
FDE,
FF6,
FD2,
019,
02D,
FD3,
FEF,
FE4,
FD8,
FED,
FE3,
01B,
FFB,
FFB,
024,
FDB,
FED,
007,
01D,
FBE,
00F,
FF4,
03A,
FED,
00D,
013,
FE4,
FE9,
01F,
02D,
01F,
01A,
049,
00B,
FED,
016,
FC0,
FE2,
F9A,
025,
FBE,
FDC,
01F,
FBD,
030,
FFB,
002,
01D,
015,
02B,
002,
FDB,
081,
02F,
010,
030,
01C,
000,
FD4,
FB4,
FEA,
001,
055,
FA2,
05B,
021,
F9A,
016,
FE4,
FEF,
017,
03D,
04F,
F95,
063,
019,
FDA,
03D,
015,
005,
FC1,
FC6,
012,
FE7,
FE8,
03E,
045,
025,
FD7,
059,
007,
FF2,
FE4,
FE5,
FF2,
027,
FFB,
021,
FE2,
FCB,
FFB,
FB2,
FE6,
FDF,
FEB,
030,
021,
029,
00D,
F63,
002,
FFA,
021,
FCD,
FB3,
FD3,
031,
FF4,
FE3,
FC3,
FEC,
FF6,
FBA,
007,
FF8,
080,
045,
FFB,
036,
FCD,
04B,
033,
04F,
006,
FBD,
02B,
00F,
FF8,
FCA,
FFB,
024,
031,
FAC,
FB5,
FF7,
03D,
02E,
FDB,
024,
FF6,
038,
08C,
022,
04B,
00F,
00F,
000,
017,
02E,
029,
019,
00E,
FE3,
FDE,
02A,
FE8,
FE2,
FC0,
022,
FCF,
FE9,
FA4,
F78,
FC2,
FE0,
00E,
FF7,
000,
007,
FED,
FDD,
FDB,
FF1,
006,
FC7,
00E,
FE0,
037,
FC5,
028,
012,
FFB,
FF4,
FAB,
012,
009,
FD8,
FE2,
FD3,
FB2,
026,
FC9,
FF5,
032,
008,
01B,
FE7,
032,
013,
FFE,
02D,
FD3,
FFB,
FF6,
02B,
03E,
04A,
FF9,
031,
029,
FFB,
FD8,
00C,
FF8,
01F,
030,
FFC,
027,
023,
FEF,
FE6,
F9B,
FC2,
FFC,
022,
FD9,
FF4,
00C,
FF8,
FED,
047,
FE8,
035,
04E,
01E,
01B,
FF7,
FCF,
FE4,
FCA,
FF9,
FE3,
04A,
03B,
FFA,
FFC,
032,
028,
04F,
02E,
FD6,
02C,
FEB,
FF5,
036,
FEE,
FCC,
FEB,
FC2,
00E,
026,
FBD,
FD9,
FF3,
00D,
01A,
FE8,
024,
FC4,
FD6,
FC0,
FC6,
FEB,
FD6,
FE5,
00C,
FA5,
FBE,
07E,
FDA,
FD4,
FCD,
FD6,
F94,
FF9,
005,
00A,
FFE,
025,
067,
FB7,
01C,
00C,
013,
040,
026,
001,
FEA,
FB4,
FEF,
01D,
FD3,
036,
FB4,
FEE,
03C,
FD5,
02D,
FF7,
FFA,
F62,
04A,
00C,
FFF,
FB9,
FF0,
014,
FED,
040,
FA6,
FC0,
044,
035,
FEE,
027,
027,
03E,
FDB,
FDC,
FDB,
FAE,
067,
FCB,
FD9,
065,
029,
00C,
FD7,
028,
FC3,
031,
00D,
FB2,
FE4,
01E,
FB9,
FD3,
007,
FF0,
049,
013,
032,
00B,
FC4,
FEB,
FDC,
FF9,
FAA,
FDA,
FFA,
FF7,
FFF,
FE4,
FB7,
FC5,
FFC,
056,
04F,
FC0,
FD3,
FFB,
FC5,
009,
FD1,
012,
004,
FCA,
015,
014,
033,
FE4,
02E,
06B,
00C,
FFE,
02A,
FE2,
FF2,
042,
070,
FDE,
025,
024,
049,
FE8,
FAF,
026,
04D,
FAF,
048,
FE0,
FE7,
FCD,
FCC,
017,
FFC,
043,
FA5,
000,
FC9,
FE9,
05E,
FEE,
FD8,
FC2,
018,
FDE,
027,
03F,
FEC,
053,
036,
FC1,
008,
036,
F8C,
FFF,
FDB,
FCB,
FEC,
F99,
022,
FEF,
FEE,
FF3,
06E,
FCC,
008,
01A,
FF0,
056,
036,
FA9,
00C,
00B,
FD6,
FF3,
FDC,
002,
FEC,
01A,
040,
00C,
FA9,
074,
FB6,
04C,
037,
FF3,
FFF,
F98,
049,
FB8,
014,
FE2,
04E,
FE2,
026,
FBC,
02F,
003,
031,
FDD,
01A,
022,
004,
039,
FF8,
021,
FDE,
038,
00F,
092,
01E,
FE4,
032,
FB8,
FFC,
005,
01D,
009,
020,
FD7,
F70,
055,
01E,
006,
015,
FAD,
00D,
077,
019,
044,
045,
00A,
FD6,
020,
041,
001,
FFC,
055,
FE8,
FCC,
034,
007,
FC5,
FCB,
FE7,
005,
FF5,
FC0,
FE5,
FF7,
FCE,
002,
02E,
000,
FB0,
FC2,
FDD,
019,
FD5,
02F,
FCC,
FFE,
015,
FE0,
02D,
01A,
00F,
FD1,
FD0,
00B,
FD0,
FF7,
FEC,
014,
03C,
FE1,
FE5,
FF4,
FEC,
FFE,
FB9,
FED,
FE7,
FD4,
010,
FEB,
FD7,
FED,
FD3,
032,
FDD,
FE8,
021,
00F,
045,
030,
026,
038,
00B,
FE9,
FE6,
FE9,
019,
FE0,
001,
FC4,
016,
034,
035,
017,
01F,
006,
00B,
01F,
FDD,
FE2,
01C,
FE1,
005,
FEA,
02D,
048,
042,
03B,
020,
FD6,
014,
044,
01D,
FC6,
008,
026,
FD6,
FCC,
FC4,
FD8,
FF4,
FFA,
FC8,
FFE,
FE4,
FE3,
FC2,
039,
041,
006,
027,
FF7,
FE1,
03D,
FBA,
FBF,
043,
FF1,
046,
FC3,
FE6,
FDD,
FF2,
009,
FEE,
005,
01A,
FD5,
041,
FDE,
FF6,
001,
FB3,
052,
FD9,
034,
F9D,
009,
044,
FDA,
FF3,
FBE,
027,
F9F,
06C,
049,
01E,
022,
F91,
01D,
FCA,
014,
011,
FD3,
FF6,
FD2,
01F,
05E,
FFE,
054,
039,
FFD,
04A,
07C,
FE6,
FE9,
FFA,
FCF,
00E,
FD6,
033,
FDD,
FEC,
034,
FCE,
038,
FF4,
037,
FDF,
FBD,
033,
020,
FE2,
034,
FF3,
01B,
FC7,
02D,
00E,
FD5,
01B,
01E,
023,
FEC,
027,
FE8,
000,
007,
00C,
009,
001,
013,
FCB,
FE8,
046,
019,
FF5,
FFF,
002,
FEB,
FBC,
FE9,
FD4,
01B,
FA9,
034,
FFC,
FEC,
01B,
01C,
FDA,
010,
FD7,
FC0,
00C,
056,
01F,
FD5,
020,
00D,
FC4,
03B,
037,
01B,
FBB,
FE8,
FF0,
FAC,
FE1,
001,
027,
FD7,
FFE,
03A,
00D,
022,
FBA,
FBC,
00F,
FFF,
FD8,
FD1,
047,
FBA,
05C,
021,
003,
022,
FF9,
FF9,
03A,
FDE,
019,
FEA,
FC3,
FE2,
010,
00C,
005,
013,
033,
FC5,
FF9,
FAC,
FD5,
FFA,
046,
FE8,
00C,
049,
FD6,
FF0,
FEB,
016,
055,
030,
017,
029,
034,
FD5,
FEB,
FBF,
FE4,
FFD,
FDC,
018,
044,
043,
029,
048,
010,
FD4,
036,
FB8,
01B,
038,
081,
06F,
067,
072,
01B,
FB9,
FD8,
00B,
F94,
FB5,
033,
01D,
FC5,
00E,
008,
024,
040,
04C,
FFC,
00E,
041,
007,
02A,
FBB,
FC7,
049,
FD0,
FE1,
FE1,
03F,
014,
FB8,
016,
004,
013,
046,
054,
03D,
FC7,
04A,
FAF,
FCF,
FE5,
FCC,
01F,
041,
004,
03D,
00E,
FE8,
065,
002,
00F,
FF7,
FF9,
018,
007,
018,
FE3,
005,
F97,
FEC,
011,
007,
FF0,
FE1,
FE6,
FE5,
FCF,
00A,
FCB,
002,
029,
FFC,
FEA,
FFF,
FE7,
FAE,
FE3,
02E,
FF0,
FFC,
FFD,
FEA,
FF1,
FD3,
FE5,
00C,
01E,
FE6,
03A,
FE5,
064,
FA8,
FCD,
FBE,
040,
FC9,
02A,
02E,
FCF,
023,
02B,
FB9,
FD8,
04A,
F9D,
046,
FA8,
FF6,
FDB,
01F,
001,
FF8,
015,
015,
023,
00A,
00C,
040,
015,
FE3,
FA5,
FC6,
FD0,
041,
03C,
01A,
034,
03D,
FFE,
FE3,
00B,
FF9,
FDB,
018,
FE8,
00F,
02E,
039,
008,
01A,
01F,
05E,
04C,
014,
006,
FD4,
FC0,
FCF,
FBF,
FD4,
FCE,
022,
022,
FD1,
016,
FCC,
00E,
FAA,
FC8,
02A,
FEB,
FF2,
033,
FEF,
FD0,
027,
01E,
FC9,
00E,
FB1,
FFA,
FBA,
01F,
FD3,
FDA,
03C,
02C,
FD7,
FB2,
010,
00A,
016,
003,
FA0,
FC6,
FDC,
FBA,
FBE,
FD8,
012,
FF8,
FDD,
04B,
00A,
FDC,
00C,
010,
037,
017,
002,
FED,
002,
032,
023,
02B,
FF2,
FEA,
027,
FB6,
FE2,
FF5,
FC1,
FC9,
FEB,
FC7,
FE7,
FD9,
012,
FF5,
FCC,
FAB,
01E,
FD8,
FF2,
022,
008,
01E,
FED,
018,
FE7,
001,
02F,
047,
F9A,
FCC,
FE0,
FE8,
FDB,
022,
05D,
FF0,
00D,
FD7,
FBC,
FBB,
FE5,
FDD,
023,
027,
006,
02E,
033,
020,
FB8,
046,
032,
FE1,
FE4,
FE9,
01F,
FE9,
012,
00C,
01F,
024,
03D,
028,
01B,
01E,
012,
04E,
FFB,
06B,
01A,
FC9,
FF1,
FDC,
002,
012,
FEF,
FC6,
FDD,
FE0,
017,
01C,
FF7,
FAB,
FE4,
029,
FE7,
016,
FAE,
018,
023,
FFF,
FF9,
030,
FC2,
021,
FF1,
049,
FFC,
025,
FC2,
FC8,
027,
03B,
FBF,
FCA,
FFC,
04C,
04C,
FF9,
F88,
046,
02C,
037,
FBB,
02A,
02C,
01A,
FE0,
FBC,
FEE,
042,
FC9,
FAB,
003,
042,
FA6,
FFA,
057,
01A,
049,
F89,
016,
FA2,
031,
046,
055,
043,
034,
018,
FB8,
025,
FCE,
FEB,
023,
FBF,
FC8,
002,
00F,
FBB,
040,
FF8,
011,
018,
01E,
FAE,
FED,
02D,
FC2,
00C,
FF1,
FAD,
FC2,
FF0,
FF3,
FF3,
033,
FBE,
FAC,
FB4,
004,
00C,
FB7,
F8E,
015,
057,
FD8,
003,
FF5,
FC5,
FE3,
05B,
FF9,
033,
06D,
058,
073,
071,
000,
04D,
035,
FC5,
FF6,
FA4,
FCC,
FDE,
02D,
FCE,
003,
01B,
039,
FEC,
015,
FBF,
02B,
FDB,
F94,
01A,
03A,
FAC,
FC0,
FCA,
FC9,
FF2,
FC2,
033,
00F,
FD0,
025,
FFB,
096,
FF9,
08B,
FEA,
060,
030,
021,
003,
FE8,
010,
057,
01E,
041,
008,
02E,
008,
00F,
FB0,
FD3,
009,
FD0,
FCC,
FDA,
010,
FCD,
FE7,
036,
02A,
02E,
020,
030,
FE7,
01E,
025,
FF7,
048,
021,
02F,
025,
00F,
FB8,
013,
FE9,
FE1,
01C,
FC7,
FF4,
FF5,
009,
FE5,
FE5,
FEA,
004,
02D,
01B,
008,
FCE,
FFD,
012,
013,
F90,
FF1,
FF2,
037,
FDF,
FE4,
04D,
FED,
000,
00B,
FD4,
FDB,
023,
00F,
FEA,
FCA,
FE2,
FDD,
FEA,
020,
012,
FEE,
FC4,
030,
FD2,
FE9,
FDC,
FDD,
01F,
022,
FB5,
03B,
FCC,
FE9,
01E,
FFE,
013,
012,
FF2,
FF5,
002,
014,
FF6,
039,
FF1,
019,
FAD,
FB4,
040,
FAC,
FF7,
05A,
FEC,
FEA,
038,
016,
01B,
FE1,
FEE,
041,
02F,
FEE,
FCD,
FCF,
FF3,
FA6,
FBD,
FD4,
027,
FEA,
034,
007,
FB0,
FF9,
02E,
007,
016,
FBA,
01D,
FB0,
016,
01D,
FFE,
01B,
FFB,
FD8,
048,
FF8,
05C,
FDF,
02A,
FAE,
F80,
044,
005,
00A,
01B,
FD8,
02D,
008,
059,
049,
01A,
000,
FC9,
00A,
03D,
FCB,
03B,
021,
FCF,
02B,
03A,
036,
00C,
01F,
FD7,
FCE,
00F,
FBA,
FEE,
FED,
05D,
05F,
021,
FB5,
014,
FF4,
FD7,
FB9,
FB7,
FE8,
044,
021,
FDA,
02E,
FF3,
015,
063,
FB2,
019,
FC3,
016,
004,
00F,
03D,
010,
FE3,
FC6,
FC9,
04F,
FE8,
031,
FCC,
F9E,
03A,
FD4,
FF5,
050,
FFC,
043,
011,
FDA,
00A,
008,
FE5,
021,
048,
FD6,
00D,
FF3,
FF6,
FAF,
FF3,
012,
FD3,
FB9,
032,
018,
FDD,
FBC,
035,
FF5,
FB5,
FDA,
FE2,
018,
FDE,
FFD,
FF3,
FD0,
04C,
01E,
014,
FEA,
FC9,
02C,
030,
006,
FEE,
FFB,
011,
018,
023,
006,
FA3,
FD8,
FB2,
FEF,
FE3,
040,
FB8,
FE6,
F9D,
03B,
04F,
FB6,
FEB,
01F,
030,
FD3,
014,
041,
FC1,
FCC,
01B,
FC3,
035,
FE8,
027,
FBB,
FCE,
FE4,
FE1,
001,
FF4,
04D,
047,
00C,
00B,
01E,
009,
FC4,
FFC,
057,
FFE,
FBC,
01A,
FCC,
FE6,
03F,
046,
026,
FE7,
FD1,
FB7,
03D,
03E,
086,
065,
FEC,
FFE,
006,
040,
003,
055,
031,
01A,
006,
FE5,
00A,
FC0,
FE6,
020,
FE7,
025,
026,
FED,
FF3,
FFE,
F89,
F6D,
01B,
007,
02F,
025,
01E,
02B,
FFE,
02D,
FDE,
FFA,
FFC,
034,
024,
FDD,
018,
019,
FDA,
FF9,
FEB,
FED,
01F,
017,
FF2,
FCB,
FED,
FFA,
FFE,
FD7,
015,
FFA,
FE5,
FD5,
028,
013,
019,
00E,
00B,
FCB,
FDA,
009,
011,
FED,
FE4,
035,
000,
005,
FF7,
00C,
00B,
026,
006,
003,
FE2,
FD0,
009,
016,
FF0,
FEC,
00C,
FF7,
015,
020,
00A,
01C,
FEE,
FF4,
FFC,
007,
000,
01C,
FF2,
013,
02A,
007,
FF1,
014,
FF6,
001,
FFF,
032,
007,
FFA,
FF9,
FFF,
FEC,
FDD,
FEF,
002,
FDE,
025,
00B,
FF2,
017,
00E,
020,
FEC,
031,
FFF,
01D,
FD6,
FD5,
FDF,
009,
FE0,
FC5,
FC1,
027,
FCB,
FFF,
FCA,
039,
FF0,
01B,
016,
FE9,
FE6,
FE7,
00B,
007,
FFF,
FEE,
FF5,
018,
F7A,
FE6,
FF5,
FF7,
01C,
FB2,
FCC,
01A,
FCF,
01E,
FEF,
FAF,
FD6,
029,
013,
071,
02C,
031,
FBA,
06B,
00B,
088,
FCF,
FC0,
FE4,
069,
003,
01D,
06E,
040,
FD6,
040,
FE7,
F92,
FE6,
04B,
051,
FCF,
050,
000,
005,
FF9,
02B,
011,
FE5,
01E,
01C,
011,
008,
FE2,
FCA,
04A,
017,
049,
073,
01F,
058,
FEA,
006,
F98,
FCE,
FF8,
F80,
018,
FFC,
F9C,
FF2,
FED,
049,
008,
FAD,
004,
FB5,
F6E,
FCD,
FC6,
008,
FF6,
FDC,
FD8,
FA9,
027,
005,
FE6,
FDF,
FEA,
FBE,
015,
FC1,
FBE,
FEC,
FDF,
02A,
FF5,
FB1,
00D,
056,
078,
00D,
FDC,
FFE,
01C,
025,
02F,
033,
FEA,
FC4,
FE0,
00E,
FD4,
FE1,
006,
070,
FFC,
001,
03A,
FF3,
FDA,
01B,
FFD,
018,
FD8,
FE4,
FC7,
03A,
FCA,
FC7,
017,
00B,
002,
021,
01F,
040,
FF6,
FDD,
045,
069,
FDF,
FC1,
014,
FF8,
FFD,
02F,
FE8,
01D,
03A,
027,
FD5,
01F,
018,
FF7,
035,
FC3,
FE4,
FDB,
026,
FB6,
FE4,
039,
017,
008,
FE7,
FE3,
01B,
FEE,
007,
FEF,
027,
017,
FF8,
FE9,
FE4,
FF8,
FF3,
000,
02F,
FD9,
019,
FA3,
FF5,
FEB,
03A,
018,
FF8,
FE1,
FF2,
FC1,
FF9,
013,
00A,
FF6,
FD6,
FDD,
FA1,
FD2,
039,
053,
01E,
FE6,
010,
FCB,
011,
FF5,
00F,
FC3,
001,
FFF,
FD2,
FF2,
021,
FE8,
027,
037,
FDE,
00F,
013,
FD0,
FDF,
01B,
FF0,
FDB,
FE5,
FD1,
019,
FF5,
01D,
FF0,
026,
FCF,
02B,
02C,
010,
012,
002,
00B,
037,
FE3,
036,
FDF,
012,
FBC,
F76,
039,
FC5,
FE6,
FD0,
011,
FE4,
FF7,
FFD,
000,
FE0,
042,
003,
059,
01E,
025,
043,
FE1,
03D,
FF4,
071,
FF6,
02F,
016,
005,
FE9,
02F,
FDE,
054,
02D,
009,
006,
FDC,
02F,
FD9,
FD3,
FBF,
FA7,
FDA,
FDA,
FCE,
022,
F99,
03E,
FD5,
01C,
FCD,
033,
FD1,
FA0,
043,
033,
FBA,
FC1,
040,
FF4,
FB1,
FED,
023,
FB5,
FE6,
FDA,
FB0,
FDA,
02A,
FB1,
FCD,
FA8,
FBA,
051,
FE9,
000,
04A,
032,
FAF,
FA6,
FFA,
FC6,
F7C,
FD6,
023,
03E,
FFC,
021,
03D,
FF3,
030,
044,
00C,
04D,
FA7,
FC4,
FC8,
010,
02B,
020,
014,
FEB,
036,
FE2,
03D,
048,
021,
04E,
022,
006,
02E,
000,
016,
01C,
021,
FC8,
01E,
FC4,
067,
048,
018,
FD7,
001,
011,
22C,
02A,
E16,
FC5,
0E5,
004,
F75,
089,
1E3,
EA0,
130,
F74,
E2C,
0EC,
170,
FD2,
FC4,
FF8,
059,
029,
048,
05D,
05F,
FF2,
001,
FF2,
FF8,
FFA,
003,
005,
00A,
FFC,
FFE,
FFD,
02A,
019,
01A,
015,
026,
028,
010,
00E,
009,
FFF,
012,
FD5,
FE2,
FF7,
FE3,
FEF,
FE5,
00C,
FFD,
FFA,
FF3,
FFB,
FF3,
001,
FFC,
006,
FFE,
FFD,
007,
004,
FF7,
FF2,
FF2,
FFB,
FFA,
FFE,
FFD,
002,
FFE,
001,
FFD,
FEE,
FFF,
00B,
004,
005,
00F,
008,
020,
011,
01C,
007,
00C,
010,
006,
FDF,
FEA,
FEF,
FED,
FDB,
FEE,
FF0,
FFD,
FE2,
FFB,
FEC,
FFE,
FFC,
FFD,
FF9,
FF4,
FF9,
002,
FFF,
FF5,
FFC,
FFB,
00C,
020,
01C,
01B,
01C,
017,
009,
00A,
00C,
003,
FFF,
00F,
010,
FFA,
005,
00B,
FFD,
00C,
003,
FFC,
004,
006,
000,
007,
001,
FFD,
011,
00B,
007,
FFE,
FF0,
006,
FF5,
004,
001,
FFA,
009,
003,
FF8,
FF7,
004,
003,
005,
FFB,
FEB,
FF0,
FE9,
FEA,
FF8,
FFC,
FE8,
FFC,
FF9,
002,
FFA,
004,
FFD,
FFE,
005,
010,
006,
012,
007,
FF7,
009,
FF3,
010,
FF7,
000,
FFD,
FF0,
FFC,
003,
FFC,
006,
FFC,
000,
015,
00D,
017,
018,
01D,
00B,
003,
00A,
00C,
007,
FF5,
FFF,
FFF,
00A,
009,
009,
009,
005,
FFC,
FFB,
FFE,
005,
FE7,
FF4,
FEF,
FF5,
FE9,
FF7,
FF6,
FFC,
FFA,
FEB,
FF8,
FF9,
FFB,
FF7,
FEF,
FFF,
FFB,
FF8,
FFF,
000,
00A,
FF0,
018,
FFC,
005,
005,
01A,
001,
009,
FF1,
FF6,
009,
FFE,
FF1,
FF8,
FFA,
FFD,
FF8,
FF7,
FFD,
FF8,
006,
FFD,
FF5,
FF9,
FF1,
FF8,
FF5,
003,
FF4,
FFC,
FFE,
FFD,
FF3,
FE0,
FE5,
FF6,
FF1,
FE6,
FDE,
FED,
FFE,
006,
FF9,
FFF,
00D,
00E,
009,
00C,
FFF,
00D,
00D,
00F,
000,
FFA,
FFE,
00A,
FEA,
FE8,
FFD,
FE6,
FFF,
FF2,
003,
009,
001,
FF7,
002,
FD1,
FD3,
FD8,
FCF,
FDE,
FDF,
FE0,
FE3,
FE6,
FEE,
FED,
006,
FFF,
00E,
FF5,
FF2,
FEF,
010,
FF2,
FF4,
000,
000,
FF4,
FEA,
FFC,
FEB,
FEB,
FEA,
007,
FF0,
FF3,
FEE,
FEE,
FEB,
FEC,
000,
FFD,
FF4,
006,
008,
FF5,
FFD,
FE5,
FF8,
FF9,
000,
00D,
008,
003,
00E,
FF4,
01C,
00B,
00A,
012,
006,
008,
009,
006,
00A,
00C,
004,
FFE,
00A,
00B,
00D,
012,
00D,
016,
00E,
00B,
FFB,
00D,
FFC,
001,
002,
006,
FE8,
FD5,
FED,
FD8,
FE2,
FD1,
004,
003,
FE5,
FF1,
FED,
006,
FD3,
011,
FFA,
016,
002,
FFF,
004,
FFD,
009,
FFD,
FF7,
009,
016,
FEF,
011,
005,
004,
FF5,
FDF,
FC6,
FE0,
FD6,
FF4,
FF6,
004,
FE3,
007,
00F,
FFF,
009,
001,
FFE,
FF1,
FFA,
004,
002,
008,
007,
FE9,
FF3,
002,
00C,
00A,
FFA,
FED,
FE7,
FE0,
FF1,
FDA,
FF3,
FF9,
FF2,
FE9,
005,
FD9,
FFB,
FEB,
FE5,
007,
FF7,
005,
FFB,
00D,
002,
FF6,
000,
FF6,
001,
FEE,
FEC,
FF5,
FE3,
FFC,
FF6,
009,
FFA,
FF6,
019,
009,
005,
017,
00C,
007,
FFD,
FFA,
00D,
009,
00C,
010,
001,
00E,
008,
010,
005,
FFE,
007,
FFD,
00D,
FFA,
FF9,
013,
FFD,
01B,
FF1,
FFE,
008,
FFC,
00D,
008,
006,
008,
FD6,
FEC,
FFE,
00E,
FFD,
FFB,
FFF,
FF8,
FF8,
FED,
006,
FF3,
FF3,
FEB,
FFC,
FF5,
FF7,
006,
FF4,
006,
01A,
011,
00D,
002,
015,
006,
FF8,
009,
FFF,
00A,
008,
FFE,
00E,
00A,
00D,
010,
009,
004,
FFF,
FFE,
000,
00E,
013,
006,
00E,
FFF,
00A,
00F,
FFC,
FFD,
002,
001,
010,
FEC,
FFB,
FF6,
FF2,
FEE,
FEE,
001,
008,
FF7,
FF2,
FF9,
01F,
011,
00A,
00D,
024,
01C,
00E,
012,
000,
006,
000,
FFF,
005,
010,
001,
FFB,
FFB,
00A,
FFE,
FFA,
FEC,
FF9,
000,
00B,
006,
010,
00B,
003,
005,
009,
FFF,
FF3,
008,
FF4,
FEE,
FF2,
FF6,
FF1,
FFB,
008,
006,
FFA,
00F,
00B,
006,
FFD,
00C,
005,
01E,
00B,
008,
002,
00D,
002,
009,
FFF,
004,
00C,
007,
004,
007,
000,
FFE,
000,
004,
FFC,
009,
003,
002,
000,
004,
FF8,
002,
FF5,
003,
001,
005,
000,
015,
01B,
019,
01A,
010,
010,
FFE,
00E,
FFF,
FFD,
00C,
011,
FF4,
FFC,
FFF,
FF5,
FEB,
FF0,
FF0,
004,
FF7,
FF4,
FF9,
FFD,
FFD,
00E,
004,
006,
00C,
FF4,
00C,
00B,
FF2,
FF8,
FE5,
FFE,
FFB,
FEA,
FF4,
FFF,
FF5,
001,
FF6,
FFE,
FF7,
FFC,
002,
008,
006,
FED,
001,
FFF,
FF9,
00E,
008,
008,
005,
012,
016,
00F,
00F,
010,
002,
015,
FFD,
002,
FF6,
FFB,
FED,
FE6,
FEC,
FF8,
FFE,
FFF,
FFB,
FF9,
000,
FFF,
009,
00F,
012,
FFF,
FF4,
00E,
012,
FF4,
000,
007,
FF4,
FFE,
FFE,
FFE,
004,
007,
000,
009,
FF8,
010,
00A,
010,
005,
014,
007,
011,
002,
00C,
000,
FEE,
006,
FF5,
FFA,
FED,
FE0,
FF5,
FEF,
FF9,
FFE,
FF8,
FFD,
FF3,
001,
FF1,
FE7,
FF4,
FF0,
FF6,
003,
FF3,
004,
002,
FFE,
FF3,
FFE,
FF8,
001,
FEE,
001,
FF7,
FFA,
000,
FF6,
FF5,
005,
FFE,
FFC,
FF4,
008,
FFB,
002,
FF9,
002,
00B,
FF3,
006,
FF8,
002,
FF4,
FF9,
003,
001,
003,
FF8,
FF6,
009,
015,
00C,
012,
005,
016,
00E,
011,
FFD,
011,
001,
007,
018,
014,
FFF,
00D,
012,
027,
000,
00B,
00E,
FFE,
FF7,
FD4,
FEA,
FDD,
FC7,
FBE,
FCC,
FF5,
FF9,
FFD,
000,
FFC,
00E,
017,
009,
00F,
012,
006,
007,
FFF,
001,
FFC,
FF1,
018,
00C,
FFE,
00B,
FF7,
FFB,
FFE,
009,
009,
FFE,
002,
01B,
00C,
001,
FFE,
FFE,
011,
FF9,
00F,
00E,
013,
FF9,
FDA,
FD8,
FE4,
FD5,
FBC,
FB8,
FF0,
FEC,
FD5,
FD5,
FCC,
FF3,
FEF,
FF3,
FE5,
003,
FF2,
FF5,
FFF,
FEF,
FF9,
FEF,
FE3,
FC8,
FDA,
FF9,
FF7,
FEE,
FE2,
FEE,
FE1,
FFC,
FE3,
00E,
012,
FED,
FFD,
FFF,
FFF,
FF7,
000,
003,
00C,
FE6,
FE9,
007,
001,
00C,
FE8,
FF2,
004,
002,
006,
00B,
FFE,
FFD,
FF3,
FE3,
009,
FF5,
FF1,
FE5,
000,
000,
023,
000,
00B,
017,
003,
FF6,
019,
019,
00B,
FFB,
013,
004,
FF8,
00C,
FFC,
005,
003,
00E,
FF7,
01B,
009,
009,
00E,
FFC,
FFB,
FFD,
007,
007,
005,
00D,
008,
001,
000,
FF6,
FEF,
01C,
00F,
022,
01A,
001,
019,
FFE,
FF6,
00B,
006,
00A,
FD7,
FED,
FF7,
FF2,
FD8,
FDF,
FFA,
FED,
001,
FE9,
FD8,
00F,
FD8,
FED,
FEB,
FD4,
FE7,
FED,
FFB,
FE9,
008,
FF0,
FEC,
FE0,
FEF,
002,
FFC,
003,
FE3,
FFF,
004,
FEF,
FE8,
015,
FFB,
003,
00F,
002,
01E,
FF8,
FF6,
012,
00B,
FF1,
002,
008,
010,
00C,
FFD,
FED,
FEB,
FF7,
FFA,
FFD,
00D,
017,
00E,
00C,
018,
00C,
000,
001,
FF3,
00B,
001,
FFC,
FDF,
FE4,
FFA,
FE9,
FF5,
FE5,
FEC,
FE1,
001,
FE1,
FE5,
00D,
FF8,
FFB,
003,
00A,
001,
FFD,
FF2,
FF5,
FF3,
00E,
FD2,
FE4,
FEE,
FD3,
FBE,
FC1,
FE8,
FD9,
FE5,
FFA,
FDA,
005,
00E,
FFC,
00E;
